#ifndef MODEL_H
#define MODEL_H

const unsigned char model_tflite[] = {
  0x1c, 0x00, 0x00, 0x00, 0x54, 0x46, 0x4c, 0x33, 0x14, 0x00, 0x20, 0x00,
  0x1c, 0x00, 0x18, 0x00, 0x14, 0x00, 0x10, 0x00, 0x0c, 0x00, 0x00, 0x00,
  0x08, 0x00, 0x04, 0x00, 0x14, 0x00, 0x00, 0x00, 0x1c, 0x00, 0x00, 0x00,
  0x8c, 0x00, 0x00, 0x00, 0xe4, 0x00, 0x00, 0x00, 0xb8, 0x0e, 0x00, 0x00,
  0xc8, 0x0e, 0x00, 0x00, 0x3c, 0x16, 0x00, 0x00, 0x03, 0x00, 0x00, 0x00,
  0x01, 0x00, 0x00, 0x00, 0x04, 0x00, 0x00, 0x00, 0xf6, 0xf0, 0xff, 0xff,
  0x0c, 0x00, 0x00, 0x00, 0x1c, 0x00, 0x00, 0x00, 0x3c, 0x00, 0x00, 0x00,
  0x0f, 0x00, 0x00, 0x00, 0x73, 0x65, 0x72, 0x76, 0x69, 0x6e, 0x67, 0x5f,
  0x64, 0x65, 0x66, 0x61, 0x75, 0x6c, 0x74, 0x00, 0x01, 0x00, 0x00, 0x00,
  0x04, 0x00, 0x00, 0x00, 0x90, 0xff, 0xff, 0xff, 0x0d, 0x00, 0x00, 0x00,
  0x04, 0x00, 0x00, 0x00, 0x08, 0x00, 0x00, 0x00, 0x6f, 0x75, 0x74, 0x70,
  0x75, 0x74, 0x5f, 0x30, 0x00, 0x00, 0x00, 0x00, 0x01, 0x00, 0x00, 0x00,
  0x04, 0x00, 0x00, 0x00, 0xea, 0xf1, 0xff, 0xff, 0x04, 0x00, 0x00, 0x00,
  0x0c, 0x00, 0x00, 0x00, 0x6b, 0x65, 0x72, 0x61, 0x73, 0x5f, 0x74, 0x65,
  0x6e, 0x73, 0x6f, 0x72, 0x00, 0x00, 0x00, 0x00, 0x02, 0x00, 0x00, 0x00,
  0x34, 0x00, 0x00, 0x00, 0x04, 0x00, 0x00, 0x00, 0xdc, 0xff, 0xff, 0xff,
  0x10, 0x00, 0x00, 0x00, 0x04, 0x00, 0x00, 0x00, 0x13, 0x00, 0x00, 0x00,
  0x43, 0x4f, 0x4e, 0x56, 0x45, 0x52, 0x53, 0x49, 0x4f, 0x4e, 0x5f, 0x4d,
  0x45, 0x54, 0x41, 0x44, 0x41, 0x54, 0x41, 0x00, 0x08, 0x00, 0x0c, 0x00,
  0x08, 0x00, 0x04, 0x00, 0x08, 0x00, 0x00, 0x00, 0x0f, 0x00, 0x00, 0x00,
  0x04, 0x00, 0x00, 0x00, 0x13, 0x00, 0x00, 0x00, 0x6d, 0x69, 0x6e, 0x5f,
  0x72, 0x75, 0x6e, 0x74, 0x69, 0x6d, 0x65, 0x5f, 0x76, 0x65, 0x72, 0x73,
  0x69, 0x6f, 0x6e, 0x00, 0x11, 0x00, 0x00, 0x00, 0xd0, 0x0d, 0x00, 0x00,
  0xc8, 0x0d, 0x00, 0x00, 0x98, 0x0d, 0x00, 0x00, 0x40, 0x0d, 0x00, 0x00,
  0x2c, 0x0d, 0x00, 0x00, 0xfc, 0x0c, 0x00, 0x00, 0xec, 0x0a, 0x00, 0x00,
  0xdc, 0x02, 0x00, 0x00, 0x4c, 0x01, 0x00, 0x00, 0xbc, 0x00, 0x00, 0x00,
  0xb4, 0x00, 0x00, 0x00, 0xac, 0x00, 0x00, 0x00, 0xa4, 0x00, 0x00, 0x00,
  0x9c, 0x00, 0x00, 0x00, 0x94, 0x00, 0x00, 0x00, 0x74, 0x00, 0x00, 0x00,
  0x04, 0x00, 0x00, 0x00, 0xaa, 0xf2, 0xff, 0xff, 0x04, 0x00, 0x00, 0x00,
  0x60, 0x00, 0x00, 0x00, 0x0c, 0x00, 0x00, 0x00, 0x08, 0x00, 0x0e, 0x00,
  0x08, 0x00, 0x04, 0x00, 0x08, 0x00, 0x00, 0x00, 0x10, 0x00, 0x00, 0x00,
  0x28, 0x00, 0x00, 0x00, 0x00, 0x00, 0x06, 0x00, 0x08, 0x00, 0x04, 0x00,
  0x06, 0x00, 0x00, 0x00, 0x04, 0x00, 0x00, 0x00, 0x01, 0x00, 0x00, 0x00,
  0xea, 0x03, 0x00, 0x00, 0x0c, 0x00, 0x18, 0x00, 0x14, 0x00, 0x10, 0x00,
  0x0c, 0x00, 0x04, 0x00, 0x0c, 0x00, 0x00, 0x00, 0xea, 0x1a, 0x02, 0xf9,
  0x5c, 0x2a, 0xbe, 0xad, 0x02, 0x00, 0x00, 0x00, 0x02, 0x00, 0x00, 0x00,
  0x04, 0x00, 0x00, 0x00, 0x06, 0x00, 0x00, 0x00, 0x32, 0x2e, 0x32, 0x31,
  0x2e, 0x30, 0x00, 0x00, 0x16, 0xf3, 0xff, 0xff, 0x04, 0x00, 0x00, 0x00,
  0x10, 0x00, 0x00, 0x00, 0x31, 0x2e, 0x31, 0x34, 0x2e, 0x30, 0x00, 0x00,
  0x00, 0x00, 0x00, 0x00, 0x00, 0x00, 0x00, 0x00, 0xa4, 0xeb, 0xff, 0xff,
  0xa8, 0xeb, 0xff, 0xff, 0xac, 0xeb, 0xff, 0xff, 0xb0, 0xeb, 0xff, 0xff,
  0xb4, 0xeb, 0xff, 0xff, 0x46, 0xf3, 0xff, 0xff, 0x04, 0x00, 0x00, 0x00,
  0x80, 0x00, 0x00, 0x00, 0x0f, 0xdf, 0x84, 0xbe, 0xcd, 0xff, 0x91, 0x3e,
  0x75, 0x31, 0xe3, 0xbd, 0x03, 0x31, 0x46, 0x3e, 0x2a, 0xea, 0x91, 0xbe,
  0x03, 0xae, 0x7b, 0xbe, 0x69, 0x5b, 0xc9, 0xbe, 0x7a, 0x5a, 0x43, 0xbd,
  0x0c, 0xad, 0x95, 0x3d, 0x6f, 0xbc, 0x92, 0x3d, 0x3f, 0x33, 0x58, 0x3e,
  0x4b, 0x76, 0x3b, 0xbe, 0x3b, 0x64, 0x89, 0xbe, 0xfc, 0x36, 0x62, 0xbe,
  0xa2, 0xd4, 0x52, 0x3e, 0xb0, 0x50, 0xe2, 0x3d, 0xbd, 0xcd, 0x62, 0xbe,
  0x45, 0x81, 0x16, 0x3e, 0x57, 0xba, 0x80, 0x3d, 0x17, 0x89, 0xb4, 0xbe,
  0x84, 0x35, 0xbd, 0xbd, 0x96, 0x5c, 0x36, 0xbd, 0x4a, 0xfc, 0xdc, 0x3d,
  0xfc, 0xca, 0x93, 0x3e, 0x15, 0x61, 0x88, 0xbe, 0x33, 0x8b, 0x93, 0x3e,
  0xda, 0x19, 0x6b, 0xbe, 0xec, 0xa0, 0x57, 0x3e, 0x15, 0x9b, 0x1c, 0xbe,
  0x1f, 0x7e, 0x8d, 0x3e, 0xd1, 0x4d, 0x85, 0x3e, 0xae, 0x97, 0x75, 0xbd,
  0xd2, 0xf3, 0xff, 0xff, 0x04, 0x00, 0x00, 0x00, 0x80, 0x01, 0x00, 0x00,
  0x6c, 0xb5, 0x5a, 0xbe, 0x9f, 0x4e, 0xca, 0x3e, 0x88, 0xa0, 0xde, 0x3e,
  0xeb, 0x8e, 0x94, 0xbe, 0xca, 0x9d, 0xae, 0xbe, 0xaa, 0x66, 0xbd, 0xbe,
  0x1d, 0x7b, 0x86, 0xbe, 0x97, 0x59, 0xbe, 0xbe, 0xfc, 0x3a, 0x55, 0x3e,
  0xa5, 0x5a, 0x30, 0x3e, 0x66, 0xd5, 0xf7, 0xbd, 0x9b, 0xc9, 0x1a, 0xbe,
  0xa0, 0xef, 0xdf, 0x3b, 0x6e, 0xe2, 0xb6, 0x3e, 0x0e, 0x62, 0xe9, 0xbd,
  0x46, 0x9b, 0x96, 0x3e, 0x4e, 0xb4, 0x27, 0x3d, 0x89, 0x5f, 0xf5, 0xbc,
  0xa4, 0xd7, 0x60, 0x3b, 0x99, 0x16, 0x05, 0x3f, 0x02, 0xee, 0x8e, 0xbe,
  0x8e, 0x64, 0x96, 0xbd, 0xa0, 0xcd, 0x64, 0x3e, 0x82, 0x63, 0xd3, 0xbe,
  0x0f, 0x5b, 0x4e, 0x3e, 0x44, 0xf2, 0xf1, 0x3e, 0x41, 0x2a, 0xd8, 0x3e,
  0x49, 0x3a, 0x29, 0x3f, 0x90, 0x0f, 0xd5, 0xbe, 0xdc, 0xe1, 0xaf, 0xbe,
  0x68, 0x1d, 0xa4, 0xbe, 0xd2, 0xdc, 0x98, 0x3e, 0x93, 0x28, 0xc0, 0xbe,
  0x6c, 0x4a, 0xbb, 0x3e, 0xa4, 0x7b, 0x8f, 0x3d, 0x13, 0x6b, 0xce, 0x3e,
  0xf6, 0x2c, 0x3f, 0x3e, 0xca, 0x62, 0xe0, 0x3e, 0x9a, 0x8d, 0x79, 0xbe,
  0x3e, 0x25, 0x86, 0xbe, 0x61, 0x9b, 0x94, 0x3e, 0x4d, 0x73, 0xb2, 0x3e,
  0x1b, 0x03, 0xf8, 0xbd, 0xad, 0x1b, 0x78, 0xbe, 0x4d, 0x51, 0x1a, 0xbe,
  0x6f, 0x82, 0xc2, 0x3e, 0x4e, 0x99, 0x4b, 0xbe, 0x99, 0x72, 0x0c, 0xbe,
  0x6e, 0xd7, 0xc3, 0x3e, 0x00, 0xb4, 0x37, 0x3e, 0x59, 0x42, 0x79, 0x3d,
  0xf9, 0xc6, 0x60, 0xbe, 0x00, 0x8a, 0x3a, 0x3e, 0x34, 0x01, 0x8c, 0xbe,
  0x47, 0xd2, 0x07, 0x3e, 0xf7, 0x6f, 0x6c, 0xbe, 0x46, 0x68, 0x57, 0x3e,
  0xaf, 0xf1, 0x81, 0xbd, 0x4b, 0x06, 0xe2, 0x3e, 0x83, 0x77, 0xb7, 0xbd,
  0x32, 0x7d, 0x96, 0xbd, 0xc1, 0xe6, 0x98, 0xbe, 0x96, 0x0c, 0xba, 0x3e,
  0x24, 0x59, 0x3a, 0x3e, 0x20, 0x91, 0xa9, 0x3e, 0x97, 0x40, 0xd2, 0xbe,
  0xe3, 0x47, 0x5e, 0x3e, 0xcb, 0x9a, 0x5e, 0xbe, 0x60, 0xce, 0x17, 0xbf,
  0x7d, 0x18, 0x3a, 0xbe, 0x89, 0xf0, 0x1a, 0x3d, 0x4b, 0x0a, 0x25, 0x3e,
  0x3e, 0x94, 0x9c, 0x3e, 0xc8, 0x94, 0xc8, 0xbe, 0xc5, 0xd0, 0xb9, 0xbe,
  0x71, 0x48, 0xb7, 0xbe, 0x6d, 0xdd, 0xd5, 0xbe, 0xca, 0x03, 0xb9, 0xbe,
  0x5b, 0x1e, 0x63, 0xbe, 0xa0, 0xb9, 0xe1, 0xbe, 0xd0, 0xd0, 0x3d, 0x3e,
  0x0a, 0x2f, 0xa0, 0xbe, 0x92, 0x66, 0x36, 0x3e, 0xd9, 0x50, 0x13, 0xbe,
  0x83, 0xb3, 0xf7, 0xbd, 0xf0, 0xa2, 0xb1, 0x3e, 0x4a, 0x53, 0xac, 0x3e,
  0x05, 0x7c, 0x67, 0xbe, 0xb8, 0x2a, 0x49, 0x3d, 0x3e, 0xc1, 0x8a, 0xbe,
  0xff, 0x49, 0x6f, 0xbd, 0x25, 0x34, 0x00, 0xbe, 0x76, 0x8d, 0x07, 0x3e,
  0x54, 0x66, 0x05, 0xbc, 0xfb, 0x81, 0xa5, 0xbe, 0x8f, 0x24, 0xbf, 0x3e,
  0x5e, 0xf5, 0xff, 0xff, 0x04, 0x00, 0x00, 0x00, 0x00, 0x08, 0x00, 0x00,
  0xd4, 0xc2, 0xc3, 0x3e, 0x7e, 0x58, 0x14, 0x3f, 0xb3, 0xd2, 0xe5, 0xbc,
  0x5f, 0x9e, 0xd6, 0x3e, 0x27, 0x17, 0x37, 0x3e, 0x46, 0x46, 0x90, 0x3f,
  0x3b, 0x0a, 0x9b, 0x3e, 0xc2, 0x6a, 0x92, 0x3d, 0x21, 0xd5, 0xe1, 0x3e,
  0x81, 0x9b, 0x60, 0x3e, 0x37, 0x7c, 0x40, 0x3e, 0x25, 0x21, 0x9a, 0xbd,
  0x65, 0x17, 0xc1, 0x3e, 0x0c, 0xc2, 0x95, 0x3e, 0x5f, 0x29, 0x15, 0x3e,
  0x79, 0x97, 0xb1, 0xbc, 0x8d, 0x31, 0xf8, 0x3e, 0xd0, 0xf4, 0x84, 0xbb,
  0xfc, 0x37, 0x03, 0xbe, 0xef, 0xaf, 0x06, 0x3e, 0x29, 0x30, 0xad, 0xbe,
  0x6e, 0x3c, 0x8a, 0x3e, 0x90, 0x28, 0x0f, 0x3f, 0x47, 0xd4, 0xe6, 0x3d,
  0x41, 0xe9, 0xbb, 0x3e, 0x08, 0xaf, 0xde, 0x3e, 0x92, 0x65, 0x3f, 0xbe,
  0xca, 0xba, 0x8f, 0x3e, 0x29, 0xeb, 0x2b, 0x3f, 0xe8, 0x42, 0x2b, 0x3d,
  0x9d, 0xf7, 0xbf, 0x3d, 0x00, 0xda, 0x51, 0x3e, 0x3e, 0x99, 0xc6, 0xbd,
  0xf3, 0xce, 0x0f, 0xbd, 0x1b, 0x56, 0x15, 0xbe, 0xed, 0x05, 0x10, 0xbe,
  0x7a, 0x94, 0xd9, 0xbe, 0x16, 0x37, 0x21, 0xbf, 0xfa, 0xf2, 0x90, 0xbe,
  0xcf, 0x5b, 0x46, 0x3e, 0x39, 0x2e, 0x9b, 0x3c, 0xaa, 0x4c, 0x01, 0xbe,
  0x7c, 0xb3, 0xb2, 0xbd, 0xc5, 0x55, 0x2f, 0xbe, 0x0e, 0x4d, 0xbf, 0x3d,
  0x60, 0x5b, 0x11, 0xbe, 0x31, 0x89, 0x1a, 0x3e, 0x37, 0x04, 0x84, 0x3e,
  0x5f, 0xf5, 0xb7, 0xbd, 0x0b, 0xc8, 0x01, 0xbe, 0xe5, 0x73, 0x6a, 0xbe,
  0xb5, 0xa3, 0xa2, 0xbe, 0xf6, 0xe5, 0xc2, 0xbe, 0x98, 0x0c, 0x9e, 0xbd,
  0xfb, 0x7f, 0x9d, 0x3e, 0x80, 0x93, 0x2a, 0x3e, 0x6d, 0xb4, 0x88, 0xbe,
  0x8c, 0xf1, 0x52, 0x3e, 0xdd, 0x50, 0x1d, 0xbf, 0x67, 0xec, 0xd3, 0x3d,
  0x12, 0x8c, 0x8d, 0x3d, 0x6d, 0x85, 0x3f, 0x3e, 0xed, 0x1d, 0x7f, 0x3e,
  0x9d, 0x6e, 0xe7, 0xbd, 0x20, 0x49, 0x7a, 0x3d, 0x58, 0x66, 0x17, 0x3d,
  0x8f, 0x5b, 0x0b, 0xbd, 0x30, 0x0e, 0xb8, 0x3d, 0x92, 0x30, 0x2b, 0xbf,
  0xda, 0x2a, 0xe6, 0x3d, 0xff, 0x62, 0xe4, 0xbe, 0xf2, 0x40, 0xb6, 0xbe,
  0x99, 0x20, 0xde, 0x3d, 0x6d, 0x66, 0x11, 0xbf, 0xbb, 0x21, 0xaa, 0x3c,
  0x2b, 0x54, 0x57, 0x3d, 0xea, 0x39, 0x43, 0xbe, 0x35, 0xd7, 0x11, 0xbd,
  0xee, 0xc5, 0xa9, 0x3e, 0x60, 0x1a, 0xa3, 0xbe, 0x4b, 0x9c, 0xc8, 0x3e,
  0x76, 0xce, 0x63, 0xbe, 0x02, 0xaf, 0x20, 0xbf, 0x0d, 0x50, 0x12, 0xbf,
  0x39, 0xae, 0x94, 0xbe, 0xc1, 0xe1, 0x89, 0xbe, 0x2a, 0xe2, 0xe7, 0xbd,
  0xa3, 0xe5, 0x0b, 0x3e, 0xb7, 0xe3, 0xb8, 0xbe, 0x5e, 0x19, 0x8b, 0x3e,
  0x03, 0xb7, 0x9a, 0xbc, 0xce, 0x1e, 0xb6, 0x3e, 0x27, 0x0b, 0xa1, 0x3e,
  0x67, 0xb7, 0x3a, 0xbe, 0x81, 0x00, 0x32, 0xbe, 0x4c, 0xc4, 0xb3, 0xbe,
  0x62, 0x04, 0x6a, 0x3e, 0x99, 0x51, 0x83, 0x3e, 0x70, 0xcc, 0xe4, 0x3e,
  0xe9, 0x71, 0x21, 0x3e, 0x7a, 0xd9, 0x13, 0xbe, 0x1e, 0x2d, 0x54, 0x3f,
  0x08, 0xb8, 0xc1, 0xbb, 0x96, 0x58, 0x87, 0xbe, 0x98, 0x9c, 0x93, 0x3e,
  0x7e, 0x6b, 0x74, 0x3e, 0x97, 0x0e, 0x98, 0xbe, 0x21, 0x15, 0x04, 0x3e,
  0x66, 0x57, 0x00, 0xbe, 0xb8, 0x3e, 0xdc, 0x3e, 0x96, 0xb5, 0xd5, 0x3e,
  0x8d, 0xce, 0xd0, 0x3e, 0x68, 0xb4, 0x95, 0x3d, 0x10, 0xdd, 0xe5, 0xbe,
  0x26, 0x12, 0x82, 0x3e, 0xac, 0x28, 0xc5, 0xbe, 0xd3, 0x8d, 0x5e, 0x3e,
  0x2a, 0x40, 0xac, 0xbe, 0x41, 0x4d, 0xcd, 0x3e, 0x9f, 0x84, 0x58, 0xbe,
  0x46, 0xa5, 0xf1, 0x3e, 0xaf, 0xaa, 0xd9, 0x3e, 0xa6, 0xf1, 0xa0, 0x3d,
  0x78, 0x5f, 0x3f, 0xbe, 0x79, 0x17, 0x33, 0xbe, 0x92, 0xc1, 0x01, 0xbe,
  0xc3, 0x96, 0xd6, 0x3e, 0x50, 0xaf, 0x62, 0x3e, 0x68, 0xcb, 0xab, 0x3d,
  0x2d, 0x90, 0xb8, 0xbe, 0x7d, 0x41, 0x58, 0x3d, 0x90, 0xd8, 0xeb, 0xbe,
  0x3c, 0xf5, 0x2b, 0x3e, 0xf4, 0xa7, 0x25, 0xbf, 0x49, 0x1b, 0xea, 0x3e,
  0x93, 0x7c, 0xb5, 0x3c, 0x7c, 0x5d, 0x59, 0x3e, 0x90, 0x85, 0x58, 0xbf,
  0xfb, 0xfc, 0x8f, 0x3e, 0x34, 0x35, 0x29, 0x3d, 0xc6, 0x31, 0xab, 0x3e,
  0x0d, 0xfc, 0x60, 0x3e, 0x65, 0xf6, 0xec, 0xbe, 0xe9, 0xdb, 0x25, 0xbf,
  0x56, 0x16, 0x9f, 0xbe, 0x77, 0xe7, 0x81, 0x3d, 0xb6, 0x68, 0x4e, 0xbd,
  0xa9, 0x75, 0x0a, 0x3f, 0x57, 0xfa, 0xd1, 0x3d, 0xbc, 0xe0, 0x35, 0x3e,
  0xaf, 0x75, 0x35, 0xbf, 0xeb, 0x97, 0xee, 0x3e, 0x13, 0xba, 0xba, 0xbe,
  0xb2, 0x29, 0x3a, 0xbe, 0x68, 0xfd, 0x47, 0xbd, 0xcb, 0xcf, 0xe0, 0x3e,
  0xab, 0x61, 0xd4, 0x3e, 0x59, 0x0e, 0xe8, 0x3c, 0xd6, 0x0e, 0xde, 0x3d,
  0x8a, 0xd6, 0x60, 0x3d, 0x73, 0x35, 0xa3, 0x3e, 0xa9, 0xc5, 0x04, 0xbd,
  0xbb, 0x31, 0x67, 0x3e, 0xe5, 0x86, 0x6e, 0xbd, 0x67, 0xff, 0xb3, 0x3e,
  0x21, 0x13, 0x34, 0x3f, 0xb3, 0x2d, 0x9c, 0x3c, 0x6a, 0x2d, 0xa2, 0x3e,
  0x5d, 0x44, 0x45, 0xbd, 0xa9, 0x96, 0x91, 0xbe, 0x5d, 0x76, 0xba, 0x3b,
  0xca, 0xf8, 0xad, 0x3e, 0x59, 0xaf, 0xae, 0x3e, 0x01, 0x50, 0xe4, 0xbb,
  0xcd, 0x95, 0x77, 0x3d, 0x16, 0xd5, 0xe0, 0x3d, 0xa5, 0x8c, 0x09, 0x3e,
  0xf7, 0xf5, 0xfb, 0xbd, 0x52, 0x32, 0x3d, 0x3e, 0xb4, 0xf6, 0xb3, 0x3e,
  0x42, 0xcf, 0x26, 0x3e, 0x79, 0x70, 0x73, 0x3e, 0xc8, 0x9d, 0xbe, 0x3e,
  0x56, 0x21, 0x85, 0x3e, 0xd2, 0x92, 0x7d, 0xbe, 0xfe, 0xf7, 0x98, 0x3e,
  0x34, 0x52, 0x82, 0xbe, 0xcf, 0x45, 0x4e, 0xbc, 0x45, 0x53, 0xba, 0x3e,
  0xe4, 0x53, 0x84, 0xbd, 0xd7, 0x28, 0xd1, 0xbd, 0xea, 0x21, 0x0e, 0x3d,
  0x64, 0xa1, 0x9f, 0xbd, 0x8e, 0xf5, 0x95, 0x3c, 0xdf, 0x09, 0x62, 0x3e,
  0x38, 0x33, 0x97, 0x3d, 0xc8, 0x98, 0xc5, 0x3c, 0x03, 0x2e, 0x21, 0xbe,
  0xc4, 0x2f, 0xb4, 0xbd, 0x0f, 0x99, 0x8b, 0xbd, 0x78, 0x7f, 0x95, 0xbe,
  0x6c, 0x1c, 0x9c, 0xbe, 0x2c, 0x35, 0xc8, 0xbe, 0x59, 0x46, 0xfc, 0x3a,
  0x1d, 0x2b, 0xc5, 0xbe, 0x29, 0x2a, 0xc6, 0xbe, 0xa9, 0xd0, 0x04, 0xbe,
  0x3c, 0xdc, 0x28, 0x3e, 0xce, 0x21, 0x39, 0x3e, 0x13, 0xa0, 0xc6, 0x3d,
  0xc5, 0xf2, 0xa6, 0xbe, 0xe6, 0x82, 0xc9, 0xbd, 0x8a, 0x90, 0x91, 0xbe,
  0x03, 0x46, 0x4a, 0xbe, 0xa7, 0xfb, 0xa3, 0xbe, 0xf7, 0x69, 0x87, 0x3d,
  0x18, 0x6a, 0x76, 0xbd, 0xbf, 0x5d, 0x49, 0xbd, 0x64, 0xfc, 0x5e, 0xbd,
  0x05, 0x3b, 0x01, 0x3e, 0x4d, 0x79, 0x0e, 0x3e, 0x16, 0xe2, 0x28, 0xbe,
  0x9d, 0xae, 0x6f, 0xbe, 0x1d, 0x05, 0xe7, 0xbd, 0x8d, 0x5d, 0xe0, 0xbd,
  0x75, 0x83, 0xa1, 0xbc, 0x73, 0xee, 0x81, 0xbe, 0x7b, 0xe5, 0x3c, 0x3e,
  0xca, 0x1b, 0xe4, 0xbe, 0xfb, 0x5e, 0xf8, 0xbd, 0x8a, 0x10, 0x7c, 0xbe,
  0x31, 0x4d, 0xc6, 0x3d, 0x2e, 0x11, 0x09, 0xbf, 0x50, 0x96, 0x30, 0x3e,
  0x38, 0xd7, 0xb4, 0x3d, 0x27, 0xbf, 0xcf, 0xbe, 0x2b, 0x05, 0xff, 0xbe,
  0x26, 0x0b, 0x01, 0xbf, 0xb7, 0x90, 0x01, 0x3d, 0x1e, 0x8d, 0xa9, 0xbd,
  0xd2, 0x0f, 0xf7, 0xbe, 0xe1, 0x03, 0x1b, 0x3e, 0x6d, 0x80, 0xb4, 0x3c,
  0x3c, 0x3e, 0x0b, 0xbf, 0xac, 0xe5, 0x00, 0xbf, 0xed, 0xe7, 0x93, 0xbd,
  0xa5, 0x12, 0x2d, 0x3e, 0xc3, 0x19, 0x5c, 0xbe, 0x22, 0xb3, 0xa6, 0x3d,
  0xcf, 0xde, 0x6a, 0x3d, 0xc0, 0x77, 0x9c, 0xbe, 0x40, 0xe8, 0xc0, 0x3d,
  0x12, 0x68, 0xb1, 0xbe, 0x33, 0xfc, 0x70, 0x3e, 0xc4, 0x0e, 0x82, 0xbe,
  0x4c, 0x7e, 0x70, 0xbe, 0x8b, 0x41, 0x8f, 0x3d, 0xd0, 0x9d, 0x35, 0xbf,
  0xd9, 0xc3, 0x73, 0xbb, 0x74, 0xc2, 0x59, 0x3e, 0xde, 0x68, 0xc8, 0xbe,
  0x25, 0x79, 0xb9, 0x3e, 0x95, 0xae, 0xeb, 0xbe, 0x80, 0x21, 0x22, 0x3e,
  0xd7, 0x33, 0x3e, 0xbe, 0x9a, 0xac, 0xbb, 0x3e, 0x37, 0x78, 0x2b, 0xbd,
  0x47, 0x1d, 0x01, 0x3f, 0xc9, 0x1a, 0x85, 0xbe, 0xc4, 0x14, 0xba, 0x3e,
  0xb6, 0xff, 0xc7, 0xbe, 0x50, 0x57, 0xd4, 0x3d, 0xec, 0x35, 0xaa, 0x3c,
  0x42, 0x53, 0x44, 0xbe, 0xf9, 0xd1, 0x59, 0xbb, 0x7e, 0x48, 0xa4, 0xbe,
  0x5c, 0x88, 0xb3, 0xbd, 0x23, 0x66, 0xcd, 0x3e, 0xd6, 0xdb, 0x8b, 0x3e,
  0xaa, 0x01, 0xb4, 0xbe, 0x32, 0x8f, 0x00, 0xbe, 0x0a, 0x22, 0x5d, 0xbf,
  0xb5, 0xde, 0x30, 0xbe, 0x73, 0xf2, 0x93, 0xbe, 0xbe, 0x95, 0x0b, 0xbb,
  0x56, 0x76, 0x8a, 0x3d, 0x6f, 0x43, 0xc9, 0xbd, 0xe3, 0x96, 0x54, 0xbe,
  0x23, 0x58, 0xd0, 0xbd, 0xae, 0xf2, 0xe1, 0xbd, 0xdd, 0x41, 0xa6, 0xbe,
  0xbc, 0x02, 0x89, 0x3c, 0xe9, 0x34, 0xfe, 0x3d, 0x8b, 0xae, 0x17, 0x3f,
  0x79, 0x90, 0xf1, 0x3e, 0xf9, 0xcd, 0xb6, 0xbd, 0x97, 0xe8, 0x0d, 0xbe,
  0xb8, 0x5e, 0x49, 0xbf, 0xe1, 0x5c, 0xc6, 0xbe, 0xc8, 0xae, 0xe2, 0x39,
  0x06, 0x03, 0x9f, 0x3c, 0xbb, 0x65, 0x37, 0xbe, 0x52, 0x3a, 0x85, 0x3e,
  0x0e, 0xf7, 0xb7, 0xbc, 0xa3, 0xfb, 0x25, 0x3e, 0x82, 0x04, 0x63, 0xbe,
  0x9b, 0x5b, 0x07, 0x3e, 0xe3, 0x20, 0xfe, 0x3e, 0xf1, 0x33, 0xbd, 0x3d,
  0x3b, 0xeb, 0x1d, 0xbe, 0x46, 0xa8, 0x0c, 0x3f, 0xe2, 0x08, 0xdf, 0x3e,
  0xc2, 0xf8, 0x12, 0x3f, 0x54, 0x35, 0x64, 0xbe, 0xcf, 0xe1, 0x4c, 0xbd,
  0x3f, 0xd3, 0x3c, 0xbd, 0x5b, 0xff, 0xbd, 0x3e, 0x49, 0x27, 0x8e, 0xbd,
  0xfd, 0xb9, 0xc4, 0x3e, 0x8a, 0x12, 0xc1, 0x3d, 0xa8, 0x5a, 0x72, 0x3e,
  0xd1, 0x39, 0x89, 0x3d, 0x05, 0x00, 0x91, 0xbe, 0x8d, 0x0c, 0x1a, 0x3e,
  0x85, 0x4c, 0xb8, 0xbe, 0x68, 0xf0, 0x36, 0xbf, 0x0d, 0x1b, 0x02, 0xbf,
  0x24, 0xd7, 0xd7, 0xbe, 0x4e, 0x03, 0x6c, 0x3d, 0x8e, 0x03, 0x2f, 0x3e,
  0x12, 0x67, 0x39, 0xbe, 0xbc, 0x0f, 0x96, 0x3d, 0xbe, 0xee, 0xb7, 0xbd,
  0x82, 0x50, 0x31, 0x3e, 0x7a, 0x69, 0x81, 0xbd, 0x21, 0xe7, 0x9f, 0xbd,
  0xe6, 0x3d, 0x56, 0xbe, 0xcf, 0x11, 0x98, 0xbe, 0x5a, 0x19, 0x9b, 0x3d,
  0xcd, 0x96, 0x26, 0xbe, 0x17, 0xf0, 0xc5, 0xbe, 0x9d, 0x46, 0xa1, 0xbe,
  0x80, 0x44, 0xfd, 0xbd, 0x9e, 0x4a, 0x86, 0x3e, 0x51, 0x81, 0x9e, 0xbd,
  0x72, 0x4b, 0xb1, 0xbd, 0x7d, 0x07, 0x31, 0xbe, 0x4f, 0x9d, 0x81, 0x3e,
  0x0a, 0xac, 0x20, 0x3e, 0x91, 0xbf, 0x49, 0xbe, 0x0c, 0xe5, 0xff, 0x3e,
  0x7e, 0x0d, 0x8b, 0xbe, 0x6b, 0xf7, 0x55, 0x3e, 0x3b, 0x5f, 0xa1, 0xbe,
  0x74, 0xba, 0xd9, 0xbe, 0x4e, 0xba, 0x73, 0x3e, 0xfd, 0x14, 0x18, 0x3f,
  0x9a, 0xb3, 0x62, 0x3e, 0x80, 0x2c, 0xf0, 0x3e, 0xd5, 0xdc, 0xca, 0xbd,
  0x24, 0xe7, 0xef, 0xbd, 0x10, 0xfe, 0xb6, 0xbe, 0xad, 0xd2, 0x96, 0x3d,
  0xbb, 0xb3, 0x95, 0x3e, 0x35, 0x7e, 0x71, 0x3e, 0xb6, 0xd2, 0x2b, 0xbc,
  0x7f, 0x72, 0x87, 0xbd, 0xd9, 0x58, 0x27, 0xbe, 0x40, 0x9b, 0x36, 0xbd,
  0x9a, 0x8b, 0xde, 0x3e, 0x56, 0x1f, 0x88, 0x3e, 0x26, 0x63, 0xa3, 0x3e,
  0x48, 0x83, 0xda, 0x3d, 0xce, 0x79, 0x38, 0x3e, 0x30, 0x7e, 0x0c, 0xbe,
  0x25, 0x3b, 0x41, 0xbe, 0x29, 0x4e, 0xa4, 0xbe, 0xe8, 0x15, 0x7f, 0xbe,
  0x77, 0x55, 0x54, 0x3e, 0xfc, 0x29, 0xda, 0x3e, 0x27, 0x21, 0x8d, 0xbd,
  0x34, 0x2f, 0xea, 0x3e, 0x66, 0x35, 0xc8, 0xbe, 0x73, 0x7e, 0xd6, 0xbd,
  0x65, 0xc8, 0x26, 0x3f, 0xf5, 0x87, 0xb4, 0x3e, 0x10, 0x75, 0x85, 0x3d,
  0xf7, 0xcb, 0x22, 0xbc, 0x89, 0x39, 0xda, 0x3e, 0x52, 0xbe, 0x60, 0x3f,
  0xcc, 0x87, 0xfa, 0xbd, 0x2d, 0x88, 0xa3, 0x3e, 0xde, 0x00, 0x17, 0x3f,
  0x32, 0x35, 0xf5, 0xb9, 0xcc, 0x8a, 0xc5, 0x3e, 0xd8, 0x3b, 0x3e, 0xbe,
  0x8c, 0x38, 0x84, 0x3e, 0x1c, 0x2c, 0x00, 0x3f, 0x4c, 0xd9, 0x17, 0xbe,
  0x7f, 0xff, 0xbb, 0xbd, 0xe1, 0x4b, 0x41, 0x3e, 0xa5, 0x0e, 0xd3, 0x3e,
  0xd0, 0x19, 0x5f, 0x3e, 0xbb, 0x9a, 0x10, 0x3f, 0xe1, 0x40, 0x35, 0xbe,
  0x2e, 0xe6, 0x22, 0x3e, 0x16, 0x9b, 0xaf, 0xbd, 0x1d, 0x6a, 0x0e, 0xbe,
  0x5d, 0xb1, 0xb7, 0x3e, 0xa7, 0x0b, 0xef, 0x3c, 0x6f, 0x95, 0x7d, 0x3e,
  0xc0, 0x2a, 0xbd, 0xbd, 0x12, 0x4b, 0x94, 0x3e, 0x63, 0xe4, 0x99, 0x3e,
  0x04, 0xca, 0xbb, 0x3e, 0x7d, 0xc5, 0x67, 0xbe, 0x61, 0x5b, 0x2b, 0x3d,
  0x43, 0x7e, 0x9d, 0x3e, 0x96, 0x07, 0xe6, 0xbe, 0x4c, 0x31, 0xae, 0x3d,
  0x9e, 0x17, 0x01, 0xbf, 0x0e, 0xe2, 0xc4, 0xbe, 0x84, 0xfd, 0x5b, 0xbe,
  0xd8, 0x55, 0x47, 0xbe, 0xfb, 0x2b, 0x00, 0x3e, 0x34, 0xe7, 0xe4, 0x3d,
  0xdb, 0x5c, 0xb3, 0x3e, 0xa2, 0x83, 0xb0, 0xbe, 0x0c, 0xd9, 0x41, 0xbe,
  0x64, 0xb9, 0x2e, 0xbe, 0xd0, 0xdc, 0xae, 0x3e, 0x83, 0x07, 0x1f, 0x3e,
  0x07, 0xad, 0x87, 0xbe, 0x6b, 0x81, 0xd9, 0x3e, 0xd8, 0x12, 0x35, 0x3e,
  0xef, 0xa7, 0x18, 0xbe, 0x05, 0x1c, 0x0c, 0xbf, 0x09, 0xdc, 0xc6, 0x3d,
  0xbb, 0x6a, 0x3f, 0x3e, 0xca, 0xd8, 0xed, 0x3e, 0xda, 0xc4, 0x8d, 0x3e,
  0x73, 0x25, 0x42, 0x3e, 0x4f, 0xd0, 0x6d, 0xbe, 0x92, 0x30, 0xe6, 0x3d,
  0x1e, 0x5a, 0xfe, 0x3d, 0x41, 0x0f, 0x67, 0xbd, 0xf2, 0xf5, 0xc8, 0x3e,
  0xda, 0xff, 0xa5, 0xbc, 0xb6, 0x33, 0xe4, 0xbc, 0xee, 0x7e, 0x25, 0xbd,
  0x5e, 0x2f, 0xa6, 0xbe, 0x9f, 0xd0, 0x8b, 0xbd, 0x0c, 0x00, 0xb1, 0xbe,
  0x68, 0xa1, 0x15, 0xbf, 0x45, 0x33, 0x24, 0xba, 0xe1, 0xe0, 0x65, 0x3e,
  0x26, 0x1d, 0xf8, 0xbd, 0xa2, 0x98, 0x55, 0x3d, 0x94, 0xc2, 0x5b, 0x3e,
  0xfb, 0x62, 0x35, 0x3e, 0x96, 0x60, 0x79, 0xbe, 0xc1, 0xb3, 0xc4, 0x3c,
  0x73, 0xf1, 0xcd, 0x3e, 0xab, 0x1d, 0x9c, 0xbd, 0x77, 0x0e, 0x08, 0xba,
  0x5d, 0x1a, 0xbd, 0x3e, 0xf9, 0x18, 0x77, 0x3d, 0xea, 0x3f, 0x92, 0xbe,
  0x6d, 0x26, 0x20, 0xbf, 0x2e, 0x67, 0xcb, 0x3e, 0x56, 0x87, 0x3f, 0x3e,
  0x69, 0x70, 0xaa, 0x3e, 0x3e, 0x98, 0x2e, 0xbe, 0x4b, 0xf1, 0xc6, 0x3e,
  0x96, 0x80, 0x15, 0xbf, 0x4d, 0x57, 0x9a, 0x3e, 0x39, 0x16, 0x77, 0xbe,
  0x17, 0x67, 0x7a, 0x3e, 0x51, 0xc9, 0xd7, 0x3d, 0x0c, 0xf7, 0xc9, 0xbe,
  0xe9, 0x0c, 0x8b, 0xbe, 0x75, 0x22, 0x9f, 0x3e, 0xfd, 0xd4, 0xed, 0xbd,
  0x29, 0x1d, 0xc6, 0x3e, 0xbe, 0x34, 0x2d, 0xbf, 0x86, 0x46, 0x1f, 0xbf,
  0xf0, 0x03, 0x21, 0xbe, 0xb1, 0xd4, 0x48, 0xbc, 0x0d, 0x6f, 0xe4, 0x3d,
  0x8d, 0xd6, 0x8c, 0xbe, 0x4e, 0x55, 0x62, 0x3e, 0xbd, 0x24, 0xa7, 0xbe,
  0x05, 0x5d, 0x43, 0xbe, 0xc0, 0x04, 0x10, 0xbe, 0x19, 0x94, 0x60, 0x3e,
  0x58, 0x44, 0x86, 0x3e, 0xa3, 0xca, 0xaa, 0xbe, 0x7c, 0x57, 0x50, 0x3e,
  0xda, 0xcd, 0x9d, 0xbe, 0x48, 0xf8, 0xdc, 0xbe, 0x32, 0xb3, 0xae, 0xbe,
  0x88, 0xbe, 0x82, 0xbc, 0x81, 0x44, 0x2e, 0x3e, 0xf3, 0x95, 0xfd, 0x3d,
  0x86, 0x4b, 0x5f, 0xbd, 0xec, 0x1c, 0x41, 0xbe, 0x56, 0xc9, 0x0d, 0xbf,
  0xa2, 0xed, 0x86, 0x3e, 0xa4, 0xb1, 0x5e, 0xbe, 0xb4, 0x27, 0xbb, 0x3e,
  0xb3, 0x8e, 0xfa, 0x3e, 0x62, 0xb3, 0xb2, 0xbe, 0x6a, 0xfd, 0xff, 0xff,
  0x04, 0x00, 0x00, 0x00, 0x00, 0x02, 0x00, 0x00, 0xcf, 0xe7, 0x1c, 0xbe,
  0x4d, 0x13, 0xa6, 0x3e, 0xcf, 0x81, 0x2e, 0x3f, 0x1e, 0x91, 0xdf, 0xbe,
  0x3f, 0x2b, 0x00, 0xbf, 0x81, 0xe4, 0x93, 0x3c, 0x2c, 0x7c, 0x0a, 0xbe,
  0x95, 0x33, 0x4a, 0x3e, 0xdc, 0x55, 0x16, 0xbf, 0x7f, 0xa0, 0x2d, 0xbf,
  0x1d, 0xe1, 0x32, 0x3f, 0xea, 0xfb, 0xaa, 0xbe, 0x3d, 0xcf, 0xcb, 0xbd,
  0xc1, 0x29, 0xd7, 0x3e, 0x85, 0xf7, 0x2a, 0x3f, 0x45, 0x95, 0x3a, 0x3f,
  0xd0, 0x52, 0xaf, 0x3e, 0x9e, 0x79, 0xf4, 0xbe, 0x78, 0x4e, 0x0c, 0x3f,
  0xe1, 0x37, 0xc3, 0xbe, 0xdf, 0xdf, 0x56, 0xbe, 0xf3, 0x7e, 0xd0, 0x3e,
  0xed, 0x4c, 0x50, 0x3e, 0x4d, 0x05, 0xb6, 0xbe, 0x4a, 0x38, 0xc4, 0xbe,
  0xec, 0xfd, 0x0e, 0xbe, 0xf5, 0xe1, 0x12, 0xbe, 0xeb, 0xef, 0x8e, 0xbe,
  0xe2, 0x36, 0x87, 0x3e, 0x5e, 0x12, 0x08, 0x3d, 0x83, 0x0a, 0x8e, 0xbd,
  0x03, 0x7c, 0xc4, 0xbe, 0x18, 0xd0, 0xe3, 0x3d, 0x27, 0xb2, 0x4e, 0x3e,
  0xd2, 0x81, 0xc1, 0x3e, 0x02, 0xf9, 0x19, 0xbf, 0x94, 0xfb, 0x1f, 0xbe,
  0xf6, 0x11, 0x54, 0x3e, 0x63, 0xde, 0x47, 0xbe, 0xb0, 0xfe, 0x0d, 0x3e,
  0x80, 0x45, 0x2e, 0x3b, 0xe1, 0xb9, 0x3f, 0xbf, 0x79, 0x40, 0x62, 0x3e,
  0xe4, 0x8b, 0x98, 0x3e, 0x68, 0xd1, 0x04, 0xbf, 0xdb, 0x2e, 0x1d, 0x3f,
  0x51, 0xbc, 0x45, 0x3e, 0x3b, 0x92, 0x48, 0x3f, 0x03, 0x73, 0xbe, 0xbe,
  0x35, 0x9c, 0x5d, 0x3e, 0xe9, 0x84, 0xa1, 0xbe, 0x57, 0x98, 0xe4, 0xbd,
  0x8b, 0x10, 0xb7, 0xbb, 0x6e, 0x47, 0x9c, 0xbe, 0xb0, 0xc1, 0xc8, 0xbd,
  0x7e, 0xe6, 0x94, 0x3e, 0x4c, 0xe0, 0xb3, 0x3e, 0xd7, 0x53, 0x90, 0x3e,
  0x77, 0x56, 0x90, 0xbd, 0x0a, 0x34, 0x82, 0xbe, 0xff, 0xa9, 0xa7, 0xbd,
  0x32, 0x9e, 0x52, 0x3e, 0xce, 0x2a, 0xc9, 0xbd, 0xb8, 0x66, 0xe7, 0xbe,
  0xd5, 0x34, 0x12, 0x3e, 0x27, 0x61, 0x2e, 0xbe, 0xb0, 0x78, 0x05, 0xbf,
  0xc1, 0x8f, 0xca, 0x3e, 0xb6, 0xf5, 0x2b, 0x3f, 0xcc, 0xca, 0x17, 0x3f,
  0x3b, 0x84, 0xdd, 0x3e, 0x81, 0x70, 0x5e, 0xbc, 0x6e, 0x52, 0x92, 0x3f,
  0xc9, 0x3c, 0x87, 0x3f, 0xb8, 0x59, 0x21, 0x3e, 0x88, 0x54, 0x09, 0x3e,
  0x54, 0x05, 0x4a, 0x3f, 0x02, 0x35, 0x0e, 0x3f, 0xdd, 0xf3, 0x87, 0xbe,
  0x97, 0x2a, 0x11, 0xbf, 0x4d, 0x42, 0x38, 0x3f, 0x5c, 0x22, 0xca, 0xbe,
  0xe6, 0x8d, 0x0f, 0xbf, 0x50, 0xf3, 0x1d, 0x3f, 0xbe, 0x1a, 0x7b, 0x3f,
  0x0d, 0xe2, 0x03, 0xbe, 0x7b, 0x61, 0x71, 0xbd, 0x2d, 0x34, 0x2f, 0xbf,
  0x5d, 0xbc, 0x06, 0x3f, 0xdd, 0x51, 0x02, 0x3f, 0xcf, 0x80, 0x90, 0x3d,
  0xf5, 0x1f, 0x30, 0x3f, 0x4b, 0xb0, 0x02, 0x3f, 0x80, 0xbe, 0xda, 0x3d,
  0x51, 0x0d, 0xba, 0x3d, 0xe5, 0x72, 0xfe, 0xbe, 0xe6, 0x29, 0x52, 0xbe,
  0xc3, 0x18, 0xda, 0x3e, 0x72, 0x1b, 0x56, 0x3f, 0x1e, 0xc6, 0x74, 0xbd,
  0x33, 0x7f, 0x9c, 0xbe, 0x2f, 0xb9, 0x29, 0xbf, 0xdd, 0x66, 0x73, 0x3d,
  0x18, 0x38, 0x66, 0x3e, 0x97, 0x62, 0x0d, 0xbe, 0xf2, 0xb8, 0x3f, 0xbc,
  0x9f, 0xaf, 0x9a, 0xbd, 0xcc, 0xd4, 0x20, 0xbd, 0x7b, 0x40, 0x30, 0x3e,
  0xe1, 0xb5, 0xcb, 0xbd, 0x6b, 0x82, 0x29, 0x3f, 0xd0, 0xa3, 0x01, 0x3f,
  0xbe, 0xe1, 0xfd, 0x3e, 0xb3, 0x56, 0xdd, 0x3e, 0xbd, 0x6c, 0x92, 0x3d,
  0x9d, 0x9d, 0x34, 0xbf, 0xba, 0xaf, 0x2f, 0xbf, 0x24, 0x8a, 0x0d, 0xbf,
  0x03, 0xe8, 0xcb, 0xbc, 0x59, 0xb5, 0x0c, 0xbe, 0xcc, 0xcb, 0x35, 0xbf,
  0x94, 0x1c, 0x51, 0xbd, 0xf3, 0x9c, 0x00, 0x3f, 0x6c, 0x82, 0xd7, 0xbe,
  0x60, 0x9e, 0x93, 0x3d, 0x12, 0xff, 0x9a, 0x3e, 0xf5, 0xdf, 0x08, 0x3f,
  0x25, 0xf9, 0x03, 0x3d, 0x76, 0xff, 0xff, 0xff, 0x04, 0x00, 0x00, 0x00,
  0x20, 0x00, 0x00, 0x00, 0xdc, 0xf8, 0x62, 0xbf, 0x0f, 0x93, 0x40, 0xbf,
  0xf7, 0x0a, 0x3f, 0xbf, 0x9e, 0x5c, 0xce, 0xbe, 0x09, 0xaf, 0x12, 0x3f,
  0xac, 0xc3, 0x8b, 0x3f, 0x41, 0x90, 0xfa, 0xbe, 0xe4, 0xf1, 0x68, 0xbf,
  0xa2, 0xff, 0xff, 0xff, 0x04, 0x00, 0x00, 0x00, 0x04, 0x00, 0x00, 0x00,
  0x17, 0xfd, 0xdb, 0xbd, 0xb2, 0xff, 0xff, 0xff, 0x04, 0x00, 0x00, 0x00,
  0x40, 0x00, 0x00, 0x00, 0xb1, 0x95, 0x9f, 0x3d, 0x93, 0xbf, 0xac, 0x3e,
  0x90, 0x05, 0x3e, 0x3e, 0x07, 0x68, 0x22, 0xbe, 0x00, 0x9c, 0x98, 0xbd,
  0x66, 0x81, 0x0f, 0xbe, 0x6b, 0x27, 0x9a, 0xbd, 0xfc, 0x5b, 0xc5, 0x3c,
  0xe7, 0xaa, 0xd5, 0xbd, 0x3c, 0x63, 0xd0, 0x3d, 0xe0, 0x38, 0xcb, 0x3e,
  0xd9, 0xf3, 0xd8, 0xbd, 0x63, 0xe6, 0xd2, 0xbd, 0xff, 0x56, 0xed, 0x3e,
  0xd9, 0x86, 0xb0, 0x3e, 0xe5, 0xdf, 0xbc, 0x3e, 0x00, 0x00, 0x06, 0x00,
  0x08, 0x00, 0x04, 0x00, 0x06, 0x00, 0x00, 0x00, 0x04, 0x00, 0x00, 0x00,
  0x20, 0x00, 0x00, 0x00, 0xad, 0x40, 0xab, 0x3e, 0x52, 0xea, 0x0c, 0x3c,
  0x54, 0xca, 0x89, 0x3e, 0xb2, 0x61, 0x27, 0xbd, 0x28, 0x99, 0x81, 0x3d,
  0x39, 0xfa, 0x8d, 0xbc, 0xa8, 0x5e, 0x8d, 0x3e, 0x5c, 0x5d, 0xa0, 0x3e,
  0xa4, 0xf8, 0xff, 0xff, 0xa8, 0xf8, 0xff, 0xff, 0x0f, 0x00, 0x00, 0x00,
  0x4d, 0x4c, 0x49, 0x52, 0x20, 0x43, 0x6f, 0x6e, 0x76, 0x65, 0x72, 0x74,
  0x65, 0x64, 0x2e, 0x00, 0x01, 0x00, 0x00, 0x00, 0x14, 0x00, 0x00, 0x00,
  0x00, 0x00, 0x0e, 0x00, 0x18, 0x00, 0x14, 0x00, 0x10, 0x00, 0x0c, 0x00,
  0x08, 0x00, 0x04, 0x00, 0x0e, 0x00, 0x00, 0x00, 0x14, 0x00, 0x00, 0x00,
  0x1c, 0x00, 0x00, 0x00, 0x50, 0x01, 0x00, 0x00, 0x54, 0x01, 0x00, 0x00,
  0x58, 0x01, 0x00, 0x00, 0x04, 0x00, 0x00, 0x00, 0x6d, 0x61, 0x69, 0x6e,
  0x00, 0x00, 0x00, 0x00, 0x05, 0x00, 0x00, 0x00, 0xf8, 0x00, 0x00, 0x00,
  0xb0, 0x00, 0x00, 0x00, 0x68, 0x00, 0x00, 0x00, 0x34, 0x00, 0x00, 0x00,
  0x10, 0x00, 0x00, 0x00, 0x00, 0x00, 0x0a, 0x00, 0x10, 0x00, 0x0c, 0x00,
  0x08, 0x00, 0x04, 0x00, 0x0a, 0x00, 0x00, 0x00, 0x0c, 0x00, 0x00, 0x00,
  0x10, 0x00, 0x00, 0x00, 0x01, 0x00, 0x00, 0x00, 0x01, 0x00, 0x00, 0x00,
  0x0d, 0x00, 0x00, 0x00, 0x01, 0x00, 0x00, 0x00, 0x0c, 0x00, 0x00, 0x00,
  0x9a, 0xff, 0xff, 0xff, 0x10, 0x00, 0x00, 0x00, 0x00, 0x00, 0x00, 0x08,
  0x0c, 0x00, 0x00, 0x00, 0x10, 0x00, 0x00, 0x00, 0x54, 0xf9, 0xff, 0xff,
  0x01, 0x00, 0x00, 0x00, 0x0c, 0x00, 0x00, 0x00, 0x03, 0x00, 0x00, 0x00,
  0x0b, 0x00, 0x00, 0x00, 0x04, 0x00, 0x00, 0x00, 0x03, 0x00, 0x00, 0x00,
  0xca, 0xff, 0xff, 0xff, 0x10, 0x00, 0x00, 0x00, 0x00, 0x00, 0x00, 0x08,
  0x10, 0x00, 0x00, 0x00, 0x14, 0x00, 0x00, 0x00, 0x76, 0xff, 0xff, 0xff,
  0x00, 0x00, 0x00, 0x01, 0x01, 0x00, 0x00, 0x00, 0x0b, 0x00, 0x00, 0x00,
  0x03, 0x00, 0x00, 0x00, 0x0a, 0x00, 0x00, 0x00, 0x05, 0x00, 0x00, 0x00,
  0x01, 0x00, 0x00, 0x00, 0x00, 0x00, 0x0e, 0x00, 0x14, 0x00, 0x00, 0x00,
  0x10, 0x00, 0x0c, 0x00, 0x0b, 0x00, 0x04, 0x00, 0x0e, 0x00, 0x00, 0x00,
  0x10, 0x00, 0x00, 0x00, 0x00, 0x00, 0x00, 0x08, 0x10, 0x00, 0x00, 0x00,
  0x14, 0x00, 0x00, 0x00, 0xba, 0xff, 0xff, 0xff, 0x00, 0x00, 0x00, 0x01,
  0x01, 0x00, 0x00, 0x00, 0x0a, 0x00, 0x00, 0x00, 0x03, 0x00, 0x00, 0x00,
  0x09, 0x00, 0x00, 0x00, 0x06, 0x00, 0x00, 0x00, 0x02, 0x00, 0x00, 0x00,
  0x00, 0x00, 0x0e, 0x00, 0x16, 0x00, 0x00, 0x00, 0x10, 0x00, 0x0c, 0x00,
  0x0b, 0x00, 0x04, 0x00, 0x0e, 0x00, 0x00, 0x00, 0x18, 0x00, 0x00, 0x00,
  0x00, 0x00, 0x00, 0x08, 0x18, 0x00, 0x00, 0x00, 0x1c, 0x00, 0x00, 0x00,
  0x00, 0x00, 0x06, 0x00, 0x08, 0x00, 0x07, 0x00, 0x06, 0x00, 0x00, 0x00,
  0x00, 0x00, 0x00, 0x01, 0x01, 0x00, 0x00, 0x00, 0x09, 0x00, 0x00, 0x00,
  0x03, 0x00, 0x00, 0x00, 0x00, 0x00, 0x00, 0x00, 0x07, 0x00, 0x00, 0x00,
  0x08, 0x00, 0x00, 0x00, 0x01, 0x00, 0x00, 0x00, 0x0d, 0x00, 0x00, 0x00,
  0x01, 0x00, 0x00, 0x00, 0x00, 0x00, 0x00, 0x00, 0x0e, 0x00, 0x00, 0x00,
  0x90, 0x05, 0x00, 0x00, 0x10, 0x05, 0x00, 0x00, 0x90, 0x04, 0x00, 0x00,
  0x48, 0x04, 0x00, 0x00, 0xf8, 0x03, 0x00, 0x00, 0xa8, 0x03, 0x00, 0x00,
  0x58, 0x03, 0x00, 0x00, 0x0c, 0x03, 0x00, 0x00, 0xa8, 0x02, 0x00, 0x00,
  0x14, 0x02, 0x00, 0x00, 0x78, 0x01, 0x00, 0x00, 0xdc, 0x00, 0x00, 0x00,
  0x60, 0x00, 0x00, 0x00, 0x04, 0x00, 0x00, 0x00, 0xbe, 0xfa, 0xff, 0xff,
  0x00, 0x00, 0x00, 0x01, 0x14, 0x00, 0x00, 0x00, 0x1c, 0x00, 0x00, 0x00,
  0x1c, 0x00, 0x00, 0x00, 0x0e, 0x00, 0x00, 0x00, 0x34, 0x00, 0x00, 0x00,
  0x02, 0x00, 0x00, 0x00, 0xff, 0xff, 0xff, 0xff, 0x01, 0x00, 0x00, 0x00,
  0xa8, 0xfa, 0xff, 0xff, 0x1b, 0x00, 0x00, 0x00, 0x53, 0x74, 0x61, 0x74,
  0x65, 0x66, 0x75, 0x6c, 0x50, 0x61, 0x72, 0x74, 0x69, 0x74, 0x69, 0x6f,
  0x6e, 0x65, 0x64, 0x43, 0x61, 0x6c, 0x6c, 0x5f, 0x31, 0x3a, 0x30, 0x00,
  0x02, 0x00, 0x00, 0x00, 0x01, 0x00, 0x00, 0x00, 0x01, 0x00, 0x00, 0x00,
  0x16, 0xfb, 0xff, 0xff, 0x00, 0x00, 0x00, 0x01, 0x14, 0x00, 0x00, 0x00,
  0x1c, 0x00, 0x00, 0x00, 0x1c, 0x00, 0x00, 0x00, 0x0d, 0x00, 0x00, 0x00,
  0x54, 0x00, 0x00, 0x00, 0x02, 0x00, 0x00, 0x00, 0xff, 0xff, 0xff, 0xff,
  0x01, 0x00, 0x00, 0x00, 0x00, 0xfb, 0xff, 0xff, 0x38, 0x00, 0x00, 0x00,
  0x73, 0x65, 0x71, 0x75, 0x65, 0x6e, 0x74, 0x69, 0x61, 0x6c, 0x5f, 0x31,
  0x2f, 0x64, 0x65, 0x6e, 0x73, 0x65, 0x5f, 0x33, 0x5f, 0x31, 0x2f, 0x4d,
  0x61, 0x74, 0x4d, 0x75, 0x6c, 0x3b, 0x73, 0x65, 0x71, 0x75, 0x65, 0x6e,
  0x74, 0x69, 0x61, 0x6c, 0x5f, 0x31, 0x2f, 0x64, 0x65, 0x6e, 0x73, 0x65,
  0x5f, 0x33, 0x5f, 0x31, 0x2f, 0x41, 0x64, 0x64, 0x00, 0x00, 0x00, 0x00,
  0x02, 0x00, 0x00, 0x00, 0x01, 0x00, 0x00, 0x00, 0x01, 0x00, 0x00, 0x00,
  0x8e, 0xfb, 0xff, 0xff, 0x00, 0x00, 0x00, 0x01, 0x14, 0x00, 0x00, 0x00,
  0x1c, 0x00, 0x00, 0x00, 0x1c, 0x00, 0x00, 0x00, 0x0c, 0x00, 0x00, 0x00,
  0x74, 0x00, 0x00, 0x00, 0x02, 0x00, 0x00, 0x00, 0xff, 0xff, 0xff, 0xff,
  0x08, 0x00, 0x00, 0x00, 0x78, 0xfb, 0xff, 0xff, 0x58, 0x00, 0x00, 0x00,
  0x73, 0x65, 0x71, 0x75, 0x65, 0x6e, 0x74, 0x69, 0x61, 0x6c, 0x5f, 0x31,
  0x2f, 0x64, 0x65, 0x6e, 0x73, 0x65, 0x5f, 0x32, 0x5f, 0x31, 0x2f, 0x4d,
  0x61, 0x74, 0x4d, 0x75, 0x6c, 0x3b, 0x73, 0x65, 0x71, 0x75, 0x65, 0x6e,
  0x74, 0x69, 0x61, 0x6c, 0x5f, 0x31, 0x2f, 0x64, 0x65, 0x6e, 0x73, 0x65,
  0x5f, 0x32, 0x5f, 0x31, 0x2f, 0x52, 0x65, 0x6c, 0x75, 0x3b, 0x73, 0x65,
  0x71, 0x75, 0x65, 0x6e, 0x74, 0x69, 0x61, 0x6c, 0x5f, 0x31, 0x2f, 0x64,
  0x65, 0x6e, 0x73, 0x65, 0x5f, 0x32, 0x5f, 0x31, 0x2f, 0x42, 0x69, 0x61,
  0x73, 0x41, 0x64, 0x64, 0x00, 0x00, 0x00, 0x00, 0x02, 0x00, 0x00, 0x00,
  0x01, 0x00, 0x00, 0x00, 0x08, 0x00, 0x00, 0x00, 0x26, 0xfc, 0xff, 0xff,
  0x00, 0x00, 0x00, 0x01, 0x14, 0x00, 0x00, 0x00, 0x1c, 0x00, 0x00, 0x00,
  0x1c, 0x00, 0x00, 0x00, 0x0b, 0x00, 0x00, 0x00, 0x74, 0x00, 0x00, 0x00,
  0x02, 0x00, 0x00, 0x00, 0xff, 0xff, 0xff, 0xff, 0x10, 0x00, 0x00, 0x00,
  0x10, 0xfc, 0xff, 0xff, 0x58, 0x00, 0x00, 0x00, 0x73, 0x65, 0x71, 0x75,
  0x65, 0x6e, 0x74, 0x69, 0x61, 0x6c, 0x5f, 0x31, 0x2f, 0x64, 0x65, 0x6e,
  0x73, 0x65, 0x5f, 0x31, 0x5f, 0x32, 0x2f, 0x4d, 0x61, 0x74, 0x4d, 0x75,
  0x6c, 0x3b, 0x73, 0x65, 0x71, 0x75, 0x65, 0x6e, 0x74, 0x69, 0x61, 0x6c,
  0x5f, 0x31, 0x2f, 0x64, 0x65, 0x6e, 0x73, 0x65, 0x5f, 0x31, 0x5f, 0x32,
  0x2f, 0x52, 0x65, 0x6c, 0x75, 0x3b, 0x73, 0x65, 0x71, 0x75, 0x65, 0x6e,
  0x74, 0x69, 0x61, 0x6c, 0x5f, 0x31, 0x2f, 0x64, 0x65, 0x6e, 0x73, 0x65,
  0x5f, 0x31, 0x5f, 0x32, 0x2f, 0x42, 0x69, 0x61, 0x73, 0x41, 0x64, 0x64,
  0x00, 0x00, 0x00, 0x00, 0x02, 0x00, 0x00, 0x00, 0x01, 0x00, 0x00, 0x00,
  0x10, 0x00, 0x00, 0x00, 0xbe, 0xfc, 0xff, 0xff, 0x00, 0x00, 0x00, 0x01,
  0x14, 0x00, 0x00, 0x00, 0x1c, 0x00, 0x00, 0x00, 0x1c, 0x00, 0x00, 0x00,
  0x0a, 0x00, 0x00, 0x00, 0x6c, 0x00, 0x00, 0x00, 0x02, 0x00, 0x00, 0x00,
  0xff, 0xff, 0xff, 0xff, 0x20, 0x00, 0x00, 0x00, 0xa8, 0xfc, 0xff, 0xff,
  0x52, 0x00, 0x00, 0x00, 0x73, 0x65, 0x71, 0x75, 0x65, 0x6e, 0x74, 0x69,
  0x61, 0x6c, 0x5f, 0x31, 0x2f, 0x64, 0x65, 0x6e, 0x73, 0x65, 0x5f, 0x31,
  0x2f, 0x4d, 0x61, 0x74, 0x4d, 0x75, 0x6c, 0x3b, 0x73, 0x65, 0x71, 0x75,
  0x65, 0x6e, 0x74, 0x69, 0x61, 0x6c, 0x5f, 0x31, 0x2f, 0x64, 0x65, 0x6e,
  0x73, 0x65, 0x5f, 0x31, 0x2f, 0x52, 0x65, 0x6c, 0x75, 0x3b, 0x73, 0x65,
  0x71, 0x75, 0x65, 0x6e, 0x74, 0x69, 0x61, 0x6c, 0x5f, 0x31, 0x2f, 0x64,
  0x65, 0x6e, 0x73, 0x65, 0x5f, 0x31, 0x2f, 0x42, 0x69, 0x61, 0x73, 0x41,
  0x64, 0x64, 0x00, 0x00, 0x02, 0x00, 0x00, 0x00, 0x01, 0x00, 0x00, 0x00,
  0x20, 0x00, 0x00, 0x00, 0xca, 0xfd, 0xff, 0xff, 0x00, 0x00, 0x00, 0x01,
  0x10, 0x00, 0x00, 0x00, 0x10, 0x00, 0x00, 0x00, 0x09, 0x00, 0x00, 0x00,
  0x44, 0x00, 0x00, 0x00, 0x28, 0xfd, 0xff, 0xff, 0x36, 0x00, 0x00, 0x00,
  0x73, 0x65, 0x71, 0x75, 0x65, 0x6e, 0x74, 0x69, 0x61, 0x6c, 0x5f, 0x31,
  0x2f, 0x64, 0x65, 0x6e, 0x73, 0x65, 0x5f, 0x31, 0x2f, 0x52, 0x65, 0x6c,
  0x75, 0x3b, 0x73, 0x65, 0x71, 0x75, 0x65, 0x6e, 0x74, 0x69, 0x61, 0x6c,
  0x5f, 0x31, 0x2f, 0x64, 0x65, 0x6e, 0x73, 0x65, 0x5f, 0x31, 0x2f, 0x42,
  0x69, 0x61, 0x73, 0x41, 0x64, 0x64, 0x00, 0x00, 0x01, 0x00, 0x00, 0x00,
  0x20, 0x00, 0x00, 0x00, 0x2a, 0xfe, 0xff, 0xff, 0x00, 0x00, 0x00, 0x01,
  0x10, 0x00, 0x00, 0x00, 0x10, 0x00, 0x00, 0x00, 0x08, 0x00, 0x00, 0x00,
  0x28, 0x00, 0x00, 0x00, 0x88, 0xfd, 0xff, 0xff, 0x1b, 0x00, 0x00, 0x00,
  0x73, 0x65, 0x71, 0x75, 0x65, 0x6e, 0x74, 0x69, 0x61, 0x6c, 0x5f, 0x31,
  0x2f, 0x64, 0x65, 0x6e, 0x73, 0x65, 0x5f, 0x31, 0x2f, 0x4d, 0x61, 0x74,
  0x4d, 0x75, 0x6c, 0x00, 0x02, 0x00, 0x00, 0x00, 0x20, 0x00, 0x00, 0x00,
  0x03, 0x00, 0x00, 0x00, 0x72, 0xfe, 0xff, 0xff, 0x00, 0x00, 0x00, 0x01,
  0x10, 0x00, 0x00, 0x00, 0x10, 0x00, 0x00, 0x00, 0x07, 0x00, 0x00, 0x00,
  0x2c, 0x00, 0x00, 0x00, 0xd0, 0xfd, 0xff, 0xff, 0x1d, 0x00, 0x00, 0x00,
  0x73, 0x65, 0x71, 0x75, 0x65, 0x6e, 0x74, 0x69, 0x61, 0x6c, 0x5f, 0x31,
  0x2f, 0x64, 0x65, 0x6e, 0x73, 0x65, 0x5f, 0x31, 0x5f, 0x32, 0x2f, 0x4d,
  0x61, 0x74, 0x4d, 0x75, 0x6c, 0x00, 0x00, 0x00, 0x02, 0x00, 0x00, 0x00,
  0x10, 0x00, 0x00, 0x00, 0x20, 0x00, 0x00, 0x00, 0xbe, 0xfe, 0xff, 0xff,
  0x00, 0x00, 0x00, 0x01, 0x10, 0x00, 0x00, 0x00, 0x10, 0x00, 0x00, 0x00,
  0x06, 0x00, 0x00, 0x00, 0x2c, 0x00, 0x00, 0x00, 0x1c, 0xfe, 0xff, 0xff,
  0x1d, 0x00, 0x00, 0x00, 0x73, 0x65, 0x71, 0x75, 0x65, 0x6e, 0x74, 0x69,
  0x61, 0x6c, 0x5f, 0x31, 0x2f, 0x64, 0x65, 0x6e, 0x73, 0x65, 0x5f, 0x32,
  0x5f, 0x31, 0x2f, 0x4d, 0x61, 0x74, 0x4d, 0x75, 0x6c, 0x00, 0x00, 0x00,
  0x02, 0x00, 0x00, 0x00, 0x08, 0x00, 0x00, 0x00, 0x10, 0x00, 0x00, 0x00,
  0x0a, 0xff, 0xff, 0xff, 0x00, 0x00, 0x00, 0x01, 0x10, 0x00, 0x00, 0x00,
  0x10, 0x00, 0x00, 0x00, 0x05, 0x00, 0x00, 0x00, 0x2c, 0x00, 0x00, 0x00,
  0x68, 0xfe, 0xff, 0xff, 0x1d, 0x00, 0x00, 0x00, 0x73, 0x65, 0x71, 0x75,
  0x65, 0x6e, 0x74, 0x69, 0x61, 0x6c, 0x5f, 0x31, 0x2f, 0x64, 0x65, 0x6e,
  0x73, 0x65, 0x5f, 0x33, 0x5f, 0x31, 0x2f, 0x4d, 0x61, 0x74, 0x4d, 0x75,
  0x6c, 0x00, 0x00, 0x00, 0x02, 0x00, 0x00, 0x00, 0x01, 0x00, 0x00, 0x00,
  0x08, 0x00, 0x00, 0x00, 0x56, 0xff, 0xff, 0xff, 0x00, 0x00, 0x00, 0x01,
  0x10, 0x00, 0x00, 0x00, 0x10, 0x00, 0x00, 0x00, 0x04, 0x00, 0x00, 0x00,
  0x28, 0x00, 0x00, 0x00, 0xb4, 0xfe, 0xff, 0xff, 0x1a, 0x00, 0x00, 0x00,
  0x73, 0x65, 0x71, 0x75, 0x65, 0x6e, 0x74, 0x69, 0x61, 0x6c, 0x5f, 0x31,
  0x2f, 0x64, 0x65, 0x6e, 0x73, 0x65, 0x5f, 0x33, 0x5f, 0x31, 0x2f, 0x41,
  0x64, 0x64, 0x00, 0x00, 0x01, 0x00, 0x00, 0x00, 0x01, 0x00, 0x00, 0x00,
  0x9a, 0xff, 0xff, 0xff, 0x00, 0x00, 0x00, 0x01, 0x10, 0x00, 0x00, 0x00,
  0x10, 0x00, 0x00, 0x00, 0x03, 0x00, 0x00, 0x00, 0x48, 0x00, 0x00, 0x00,
  0xf8, 0xfe, 0xff, 0xff, 0x3a, 0x00, 0x00, 0x00, 0x73, 0x65, 0x71, 0x75,
  0x65, 0x6e, 0x74, 0x69, 0x61, 0x6c, 0x5f, 0x31, 0x2f, 0x64, 0x65, 0x6e,
  0x73, 0x65, 0x5f, 0x31, 0x5f, 0x32, 0x2f, 0x52, 0x65, 0x6c, 0x75, 0x3b,
  0x73, 0x65, 0x71, 0x75, 0x65, 0x6e, 0x74, 0x69, 0x61, 0x6c, 0x5f, 0x31,
  0x2f, 0x64, 0x65, 0x6e, 0x73, 0x65, 0x5f, 0x31, 0x5f, 0x32, 0x2f, 0x42,
  0x69, 0x61, 0x73, 0x41, 0x64, 0x64, 0x00, 0x00, 0x01, 0x00, 0x00, 0x00,
  0x10, 0x00, 0x00, 0x00, 0x00, 0x00, 0x16, 0x00, 0x18, 0x00, 0x14, 0x00,
  0x00, 0x00, 0x10, 0x00, 0x0c, 0x00, 0x08, 0x00, 0x00, 0x00, 0x00, 0x00,
  0x00, 0x00, 0x07, 0x00, 0x16, 0x00, 0x00, 0x00, 0x00, 0x00, 0x00, 0x01,
  0x10, 0x00, 0x00, 0x00, 0x10, 0x00, 0x00, 0x00, 0x02, 0x00, 0x00, 0x00,
  0x48, 0x00, 0x00, 0x00, 0x74, 0xff, 0xff, 0xff, 0x3a, 0x00, 0x00, 0x00,
  0x73, 0x65, 0x71, 0x75, 0x65, 0x6e, 0x74, 0x69, 0x61, 0x6c, 0x5f, 0x31,
  0x2f, 0x64, 0x65, 0x6e, 0x73, 0x65, 0x5f, 0x32, 0x5f, 0x31, 0x2f, 0x52,
  0x65, 0x6c, 0x75, 0x3b, 0x73, 0x65, 0x71, 0x75, 0x65, 0x6e, 0x74, 0x69,
  0x61, 0x6c, 0x5f, 0x31, 0x2f, 0x64, 0x65, 0x6e, 0x73, 0x65, 0x5f, 0x32,
  0x5f, 0x31, 0x2f, 0x42, 0x69, 0x61, 0x73, 0x41, 0x64, 0x64, 0x00, 0x00,
  0x01, 0x00, 0x00, 0x00, 0x08, 0x00, 0x00, 0x00, 0x00, 0x00, 0x16, 0x00,
  0x1c, 0x00, 0x18, 0x00, 0x00, 0x00, 0x14, 0x00, 0x10, 0x00, 0x0c, 0x00,
  0x00, 0x00, 0x00, 0x00, 0x08, 0x00, 0x07, 0x00, 0x16, 0x00, 0x00, 0x00,
  0x00, 0x00, 0x00, 0x01, 0x14, 0x00, 0x00, 0x00, 0x20, 0x00, 0x00, 0x00,
  0x20, 0x00, 0x00, 0x00, 0x01, 0x00, 0x00, 0x00, 0x3c, 0x00, 0x00, 0x00,
  0x02, 0x00, 0x00, 0x00, 0xff, 0xff, 0xff, 0xff, 0x03, 0x00, 0x00, 0x00,
  0x04, 0x00, 0x04, 0x00, 0x04, 0x00, 0x00, 0x00, 0x1e, 0x00, 0x00, 0x00,
  0x73, 0x65, 0x72, 0x76, 0x69, 0x6e, 0x67, 0x5f, 0x64, 0x65, 0x66, 0x61,
  0x75, 0x6c, 0x74, 0x5f, 0x6b, 0x65, 0x72, 0x61, 0x73, 0x5f, 0x74, 0x65,
  0x6e, 0x73, 0x6f, 0x72, 0x3a, 0x30, 0x00, 0x00, 0x02, 0x00, 0x00, 0x00,
  0x01, 0x00, 0x00, 0x00, 0x03, 0x00, 0x00, 0x00, 0x02, 0x00, 0x00, 0x00,
  0x20, 0x00, 0x00, 0x00, 0x04, 0x00, 0x00, 0x00, 0xf4, 0xff, 0xff, 0xff,
  0x0e, 0x00, 0x00, 0x00, 0x00, 0x00, 0x00, 0x0e, 0x0c, 0x00, 0x0c, 0x00,
  0x0b, 0x00, 0x00, 0x00, 0x00, 0x00, 0x04, 0x00, 0x0c, 0x00, 0x00, 0x00,
  0x09, 0x00, 0x00, 0x00, 0x00, 0x00, 0x00, 0x09
};

const unsigned int model_tflite_len = 5792;

#endif
